<s>	0
</s>	0
<unk>	0
<pad>	0
▁	-3.24474
t	-3.29731
.	-3.30382
e	-3.48004
en	-3.6983
n	-3.70115
,	-3.82574
er	-3.99216
r	-4.17066
s	-4.28144
▁d	-4.29138
'	-4.41706
m	-4.42454
▁de	-4.48804
i	-4.55556
ch	-4.65552
▁an	-4.67353
o	-4.69234
▁E	-4.73771
▁vu	-4.77732
f	-4.80483
▁ass	-4.87647
▁eng	-4.88843
a	-4.89955
▁der	-4.90975
l	-4.92567
d	-5.06458
▁huet	-5.06985
▁net	-5.11079
▁op	-5.11596
▁D	-5.13028
▁ech	-5.13188
u	-5.18289
b	-5.20886
▁a	-5.27178
▁e	-5.2848
▁De	-5.34034
k	-5.36617
el	-5.36659
▁fir	-5.40432
em	-5.46026
z	-5.46508
▁dat	-5.46595
p	-5.46902
▁ze	-5.50994
g	-5.53947
st	-5.54241
▁mat	-5.59345
!	-5.63378
▁hunn	-5.64025
w	-5.66682
in	-5.66825
on	-5.69385
uer	-5.72643
▁et	-5.74025
▁mer	-5.79126
sch	-5.79597
▁ge	-5.80513
▁A	-5.83602
▁den	-5.86403
ë	-5.87354
▁am	-5.88
▁B	-5.88232
eg	-5.8943
▁F	-5.92706
▁sech	-5.94409
▁eis	-5.98924
lech	-5.98928
ge	-5.99304
?	-5.99687
h	-6.01523
ier	-6.02029
es	-6.02901
▁P	-6.02917
▁aus	-6.03505
ä	-6.03717
▁S	-6.05137
al	-6.05253
▁meng	-6.06839
ar	-6.07308
ung	-6.07488
▁en	-6.0983
▁ver	-6.11
éi	-6.11613
’	-6.13471
▁W	-6.15213
▁ginn	-6.16479
▁sinn	-6.18566
v	-6.20595
▁gëtt	-6.20638
▁hu	-6.21567
ach	-6.21642
la	-6.22245
▁wéi	-6.23858
nach	-6.24316
▁R	-6.26098
▁f	-6.27681
▁Sch	-6.29207
▁G	-6.29878
▁bei	-6.30007
▁An	-6.32259
▁déi	-6.32333
▁T	-6.33377
ck	-6.33632
an	-6.34388
all	-6.36376
▁mech	-6.36688
▁vill	-6.40453
▁k	-6.40839
▁g	-6.4189
▁seng	-6.45345
▁un	-6.45638
éiert	-6.48062
▁H	-6.48122
esch	-6.49608
-	-6.49915
ell	-6.50177
▁M	-6.50828
▁muss	-6.51356
▁K	-6.52592
▁hat	-6.52928
ou	-6.54962
▁St	-6.55684
▁do	-6.56456
▁war	-6.56943
▁all	-6.57215
▁méi	-6.57344
ie	-6.58383
▁ganz	-6.60374
▁Mi	-6.60842
scht	-6.62052
▁b	-6.62226
▁iwwer	-6.6238
ze	-6.62582
at	-6.62782
▁se	-6.64486
▁gutt	-6.65215
eng	-6.65254
▁ee	-6.65883
au	-6.65915
▁Hie	-6.66659
▁esou	-6.66899
▁si	-6.69599
▁een	-6.69776
▁zu	-6.70484
▁och	-6.70571
▁gouf	-6.73839
▁Leit	-6.73898
▁No	-6.74237
▁Wéi	-6.74243
▁sch	-6.76617
▁h	-6.77448
▁Dat	-6.78331
é	-6.78473
ech	-6.79147
▁dëse	-6.80304
ëmmer	-6.81731
ass	-6.81816
lo	-6.82718
ei	-6.83163
▁kann	-6.83501
▁Re	-6.84519
ann	-6.84609
▁Ver	-6.8463
▁Eis	-6.84879
ss	-6.85202
▁no	-6.86329
är	-6.87239
▁mir	-6.87326
B	-6.87562
de	-6.88096
▁Ma	-6.89287
c	-6.89419
▁N	-6.89595
▁L	-6.89778
▁deen	-6.91122
▁Bei	-6.91938
it	-6.92224
▁s	-6.92709
▁Ge	-6.92776
▁Bus	-6.94271
ill	-6.9436
ent	-6.95636
éng	-6.95947
▁wann	-6.95983
▁um	-6.97045
▁ëm	-6.97849
▁Op	-6.98199
▁U	-6.98422
▁Déi	-6.98641
ong	-6.99569
▁kee	-7.00065
äi	-7.0022
▁deem	-7.00731
am	-7.02462
▁soll	-7.03013
▁kënn	-7.03087
▁Den	-7.03982
ënn	-7.05283
mam	-7.05349
▁laang	-7.05352
▁Fir	-7.05393
S	-7.05667
▁Du	-7.05688
der	-7.05696
▁Am	-7.06681
ma	-7.06753
réi	-7.06835
▁Wan	-7.07472
▁puer	-7.08246
ang	-7.09225
▁p	-7.09385
▁hir	-7.10252
▁geet	-7.11004
▁da	-7.12031
x	-7.12995
pp	-7.13553
▁mäi	-7.13852
▁elo	-7.14162
ger	-7.15076
▁dee	-7.15113
y	-7.15743
▁maachen	-7.16643
il	-7.17366
ett	-7.17835
well	-7.1785
wer	-7.18923
▁be	-7.19014
spill	-7.19038
▁dem	-7.19438
▁Fier	-7.19478
atioun	-7.19839
éieren	-7.20031
iicht	-7.21348
▁zwee	-7.22399
▁du	-7.2256
oss	-7.2359
ëtz	-7.24419
app	-7.24885
us	-7.2542
▁Mo	-7.25581
af	-7.25902
ëll	-7.26435
▁V	-7.26452
▁mä	-7.26639
▁of	-7.2777
ik	-7.27817
▁ges	-7.2789
and	-7.28398
di	-7.28447
op	-7.28931
▁där	-7.29526
▁gesch	-7.30014
eet	-7.30389
▁gemaach	-7.31841
▁Gr	-7.32254
▁wëll	-7.33714
▁Sp	-7.34603
▁wa	-7.36385
j	-7.36997
▁grouss	-7.37035
Sch	-7.37307
▁Meng	-7.37377
▁Mat	-7.38029
éier	-7.39256
▁Pa	-7.39754
G	-7.40019
K	-7.40095
▁nei	-7.40316
▁Kanner	-7.40338
▁krut	-7.4049
oll	-7.40522
▁eraus	-7.40536
räi	-7.4065
▁mee	-7.40656
itt	-7.42645
ü	-7.43315
P	-7.438
▁näischt	-7.44053
▁hätt	-7.44054
▁zou	-7.44094
▁duerch	-7.44151
aart	-7.44225
▁säi	-7.44329
rau	-7.45089
idd	-7.46616
réck	-7.47414
Leit	-7.47649
▁kritt	-7.4776
▁gär	-7.48095
▁wier	-7.48455
um	-7.506
▁re	-7.50952
ull	-7.52145
▁Si	-7.52177
eppe	-7.52361
iv	-7.52458
nst	-7.52572
▁dräi	-7.53182
▁I	-7.53749
▁u	-7.54165
▁ka	-7.54342
▁Ka	-7.54485
▁dech	-7.5547
▁just	-7.55603
▁weess	-7.55611
▁Auto	-7.55617
▁leschte	-7.55619
Kanner	-7.5578
▁La	-7.55821
ment	-7.55838
ut	-7.55863
▁hire	-7.55954
akt	-7.57357
lee	-7.57442
▁Bi	-7.57553
escht	-7.57563
▁gef	-7.58387
per	-7.59008
▁bi	-7.59348
▁Zäit	-7.59769
▁Plaz	-7.59777
▁schonn	-7.59843
komm	-7.59851
▁sou	-7.60228
▁Mann	-7.60234
▁ne	-7.6124
ist	-7.63026
▁dann	-7.63094
▁haut	-7.64131
▁als	-7.64501
oun	-7.65143
▁aner	-7.66713
Waasser	-7.68664
▁géif	-7.6867
▁ënner	-7.68804
▁Eng	-7.68966
▁Kapp	-7.68996
H	-7.69401
A	-7.69454
ül	-7.69614
tioun	-7.69798
ack	-7.70255
▁senger	-7.70699
▁Br	-7.71027
ru	-7.71994
schter	-7.72458
▁richteg	-7.73425
▁wollt	-7.73425
▁kuck	-7.73429
halen	-7.73591
arte	-7.73592
▁Wat	-7.74214
fir	-7.74767
▁Aus	-7.75396
▁emol	-7.76126
▁waren	-7.76862
▁ni	-7.77063
▁misse	-7.78426
▁kréien	-7.78435
uff	-7.78614
äng	-7.78777
ewéi	-7.78952
uss	-7.79336
▁alles	-7.79443
▁hien	-7.80446
oder	-7.8071
▁Pro	-7.80792
▁scho	-7.81297
ce	-7.81345
ioun	-7.8273
wei	-7.82748
iech	-7.8311
▁Wi	-7.83394
▁zesumme	-7.83688
gaangen	-7.83688
ère	-7.83705
▁Dës	-7.85076
▁hues	-7.85156
▁Tra	-7.85384
▁Als	-7.87268
▁zw	-7.8742
age	-7.88377
unn	-7.88615
▁Joé	-7.89243
▁Problem	-7.89243
▁konnt	-7.89245
▁jo	-7.89292
▁wunne	-7.89296
▁Fra	-7.89386
▁kommen	-7.89387
▁hei	-7.89744
▁sp	-7.89813
▁virun	-7.90643
R	-7.90963
▁C	-7.91056
▁goen	-7.91603
ank	-7.9237
rou	-7.92971
▁In	-7.93001
him	-7.93123
▁era	-7.93281
▁neie	-7.94543
M	-7.9478
▁wichteg	-7.95126
▁brauch	-7.95128
▁fannen	-7.95144
zäit	-7.95172
▁sichen	-7.95214
▁Hand	-7.95432
▁Ku	-7.9565
mol	-7.95766
▁Papp	-7.9578
ouss	-7.95939
▁Aarbecht	-7.96008
éischt	-7.96014
▁wou	-7.96037
▁séier	-7.96369
▁Ko	-7.96735
pro	-7.96941
▁erëm	-7.975
▁éischte	-7.985
ko	-7.98753
léis	-7.99699
▁Cha	-8.00689
▁Owend	-8.01376
▁Vakanz	-8.01376
▁Mënsch	-8.01376
▁grad	-8.01376
▁Viru	-8.01378
▁nëmme	-8.01381
▁Schoul	-8.01451
▁Komm	-8.01452
▁Dag	-8.01655
▁Schw	-8.03133
ing	-8.03243
▁huelen	-8.03481
acks	-8.03866
L	-8.0401
D	-8.04089
esser	-8.04139
▁deng	-8.05241
▁dës	-8.05325
Haus	-8.05463
ement	-8.05799
▁däi	-8.05841
▁hie	-8.06474
:	-8.08042
▁däerf	-8.08044
hält	-8.08046
Poli	-8.08059
▁erof	-8.08063
ueden	-8.08071
änk	-8.08134
änner	-8.08139
▁All	-8.08202
▁Iech	-8.08294
▁Hue	-8.08567
▁ob	-8.08688
▁bescht	-8.08723
▁gesinn	-8.10232
▁Dier	-8.13429
Ma	-8.14171
▁Zu	-8.15185
▁einfach	-8.15185
léck	-8.1519
▁Är	-8.15206
leef	-8.16704
▁Patient	-8.16895
▁Bau	-8.17163
▁Wee	-8.17307
▁Li	-8.17534
stellen	-8.17726
▁Kam	-8.18024
▁Co	-8.18633
▁Hau	-8.18817
V	-8.18884
ekt	-8.19446
ire	-8.19896
gefall	-8.20089
▁maach	-8.20324
▁vir	-8.20832
stell	-8.22136
ress	-8.22657
▁mécht	-8.22878
▁selwer	-8.22883
▁tësch	-8.2289
▁jonk	-8.22894
läich	-8.22902
▁Duerch	-8.2301
▁Noper	-8.23156
▁Fro	-8.23184
▁spéi	-8.23208
vis	-8.23346
▁bass	-8.23505
äert	-8.23533
heet	-8.2415
▁Sou	-8.24247
▁sécher	-8.24392
upp	-8.25321
▁Mäi	-8.2537
▁sti	-8.2585
▁hier	-8.2609
eess	-8.26995
T	-8.27221
▁bl	-8.2847
rot	-8.2848
▁Mä	-8.30474
schaft	-8.3058
looss	-8.31119
rond	-8.31161
▁Stéck	-8.31212
▁steet	-8.31273
▁Woch	-8.31289
▁drop	-8.31295
▁loossen	-8.31313
teur	-8.31325
▁Kont	-8.31427
▁sëtz	-8.31691
Stad	-8.32431
▁kleng	-8.3253
▁wu	-8.32602
▁Ament	-8.32606
ëtt	-8.32636
▁Méi	-8.3264
geba	-8.32715
dro	-8.33055
sioun	-8.33244
véier	-8.34495
emol	-8.34745
gemaach	-8.36318
otz	-8.36416
▁Ta	-8.37436
ël	-8.38248
▁wie	-8.38438
▁Ch	-8.38553
Sue	-8.3879
▁klenge	-8.38886
▁geholl	-8.39798
Ë	-8.40302
▁Artikel	-8.40302
▁Joer	-8.40302
▁Projet	-8.40302
▁fënnef	-8.40302
Fënster	-8.40302
▁Mëtteg	-8.40302
▁Réck	-8.40303
▁kéint	-8.40304
▁lues	-8.40304
▁Dokte	-8.40307
▁schwéier	-8.40309
▁falsch	-8.40309
▁Bouf	-8.40317
▁Hond	-8.40317
fält	-8.40319
▁Schlëssel	-8.40361
▁Hal	-8.4043
kris	-8.40446
▁Frëndin	-8.40508
▁Land	-8.40663
▁héieren	-8.40745
▁Gaart	-8.40804
▁Roll	-8.40848
for	-8.41266
▁dir	-8.41289
dez	-8.4152
form	-8.41587
stand	-8.41785
wee	-8.44547
éiss	-8.45557
bal	-8.45876
goen	-8.46988
setz	-8.47049
erëm	-8.47083
mmen	-8.47803
▁Ca	-8.48918
ucht	-8.48976
tzen	-8.49281
▁Buedem	-8.50302
▁Lëtzebuerg	-8.50302
▁gewisen	-8.50302
▁natierlech	-8.50302
▁doheem	-8.50302
esonnesch	-8.50302
gehäit	-8.50304
egkeet	-8.50307
gestallt	-8.50312
▁déck	-8.50316
▁koum	-8.50328
vous	-8.50329
▁Euro	-8.50331
▁direkt	-8.50335
▁Bicher	-8.50353
▁schéin	-8.5036
dag	-8.50391
▁viru	-8.50468
▁Grond	-8.50543
eschéck	-8.5055
Bom	-8.50684
▁gelooss	-8.5072
▁soss	-8.50891
▁fräi	-8.50997
▁gebr	-8.51338
▁Gë	-8.52969
dam	-8.53954
▁Vu	-8.55013
▁elle	-8.56278
C	-8.57347
N	-8.57405
iden	-8.58087
▁Liewe	-8.60787
▁lei	-8.61076
stänneg	-8.61413
▁Accident	-8.61413
▁Betrib	-8.61413
▁laanscht	-8.61413
▁schwätzt	-8.61413
Corinne	-8.61413
▁Hëllef	-8.61413
▁Summer	-8.61413
▁Blutt	-8.61413
▁Aldo	-8.61413
▁Mataarbechter	-8.61413
Situatioun	-8.61414
▁Iwwer	-8.61414
eschäft	-8.61414
stéck	-8.61418
mëttel	-8.61421
▁kaaft	-8.61422
leeën	-8.61434
kipp	-8.61434
agéiert	-8.61438
▁iesse	-8.6145
▁Dir	-8.61466
Stëmm	-8.61535
▁lass	-8.61647
▁nächste	-8.61778
Gemeng	-8.61932
▁Kéier	-8.61984
Buch	-8.62653
ord	-8.6273
wue	-8.63898
eegel	-8.64921
gesat	-8.68015
imm	-8.6802
Kand	-8.68414
huelen	-8.69721
gesinn	-8.69856
▁verschidde	-8.72337
▁Sprooch	-8.73913
▁Sécherheet	-8.73913
▁Meedche	-8.73913
à	-8.73913
▁Häerz	-8.73913
bruecht	-8.73913
▁Roman	-8.73913
▁Gedanke	-8.73914
▁louch	-8.73917
▁genuch	-8.73917
▁Foto	-8.73918
▁Flige	-8.73919
▁waarm	-8.73925
▁Minist	-8.73927
schafft	-8.73927
▁gesäit	-8.73929
gespaart	-8.73934
giess	-8.73936
▁voll	-8.73944
▁fréier	-8.73951
▁Elteren	-8.73988
atur	-8.74002
▁léieren	-8.74054
Box	-8.74137
▁soen	-8.74151
▁fest	-8.74236
▁Vill	-8.7437
réisst	-8.74542
gelaf	-8.74596
Knéi	-8.74629
Liewens	-8.74737
leider	-8.759
▁ale	-8.79838
geli	-8.80848
eeër	-8.83858
W	-8.84225
iwwer	-8.84355
▁verléi	-8.85658
iewe	-8.859
estëmmt	-8.86812
haus	-8.8724
gefuer	-8.87607
è	-8.88151
Gespréich	-8.88198
Journalist	-8.88198
▁Diskussioun	-8.88198
▁Gesellschaft	-8.88198
▁Receptioun	-8.88198
▁Zeitung	-8.88198
▁positiv	-8.88198
▁schwätzen	-8.88198
geluecht	-8.88199
hëllefen	-8.88199
▁Kandidat	-8.88199
▁bleift	-8.88199
▁Kolleeg	-8.88199
▁bësse	-8.88199
▁riets	-8.88199
▁gudde	-8.88199
wënsch	-8.88199
▁gemengt	-8.882
Musek	-8.88201
▁géint	-8.88201
▁Form	-8.88202
klappt	-8.88204
▁Kärel	-8.88205
▁zerwéier	-8.88206
meeschter	-8.88206
▁läit	-8.88206
▁krank	-8.88207
▁Bësch	-8.88218
▁heescht	-8.88218
▁léiwe	-8.88221
▁Säit	-8.88267
halt	-8.88275
▁kafen	-8.88311
meter	-8.88392
▁gehéier	-8.88436
▁Welt	-8.88497
▁denken	-8.88518
iff	-8.88731
▁Uewe	-8.88892
elaut	-8.88893
▁verschiddene	-8.90047
▁Best	-8.90203
Test	-8.90376
stad	-8.94108
alis	-8.94917
rai	-8.96331
Patient	-9.00797
I	-9.00857
nächst	-9.04306
▁Frënd	-9.04473
Reg	-9.0451
Eltere	-9.04764
wonnen	-9.04854
▁Theater	-9.04865
▁erkläert	-9.04865
▁geplangt	-9.04865
▁lénk	-9.04865
Haapt	-9.04865
Restaura	-9.04865
honnert	-9.04865
▁Schrauwen	-9.04865
▁Strooss	-9.04865
▁Nuecht	-9.04865
waasser	-9.04866
▁Millioun	-9.04866
▁Minutte	-9.04866
▁probéier	-9.04867
▁Iddi	-9.04868
▁owes	-9.04868
gedoen	-9.04869
Bäcker	-9.04869
▁Kräiz	-9.04869
Chamber	-9.04872
mgaang	-9.04875
▁Tësche	-9.04876
▁Passag	-9.0488
minist	-9.04887
▁Cour	-9.04889
▁hanner	-9.0489
▁Bréif	-9.04891
▁Héich	-9.04895
▁drëtte	-9.04899
▁kloer	-9.04902
▁goung	-9.04903
▁Hochzäits	-9.04913
▁Biller	-9.04914
▁Präis	-9.04919
fluch	-9.04919
▁Schnéi	-9.04965
zéien	-9.05086
Gesiicht	-9.05092
Wäsch	-9.05122
échs	-9.05176
Bild	-9.05324
▁bestëmm	-9.06527
pres	-9.14999
sécher	-9.20801
ampe	-9.22336
izéiert	-9.22959
Ä	-9.24804
Hochzäit	-9.24807
aarbecht	-9.24864
▁fäerdeg	-9.24865
gewéckelt	-9.24865
ntzündung	-9.24865
trëppel	-9.24865
ualitéit	-9.24865
▁Client	-9.24865
▁Cornwall	-9.24865
▁Coronavirus	-9.24865
▁Kultur	-9.24865
▁Richtung	-9.24865
▁Theorie	-9.24865
▁behandelt	-9.24865
▁bestuet	-9.24865
▁decidéier	-9.24865
▁domadder	-9.24865
▁frëndlech	-9.24865
▁gekuckt	-9.24865
▁iergend	-9.24865
▁isoléiert	-9.24865
▁renomméierte	-9.24865
▁wonnerschéi	-9.24865
▁wäschen	-9.24865
▁Éischte	-9.24865
Prüfung	-9.24865
rogramm	-9.24865
▁Deputéiert	-9.24865
▁Terrain	-9.24865
▁schwaach	-9.24865
▁verteideg	-9.24865
▁Gebuertsdag	-9.24865
▁erziel	-9.24865
▁moies	-9.24865
cours	-9.24866
▁Kaffi	-9.24866
▁misst	-9.24866
getrollt	-9.24866
▁Koppel	-9.24867
▁gekro	-9.24868
Corona	-9.24868
fäll	-9.24868
▁Kontroll	-9.24868
▁Famill	-9.24868
▁Spaass	-9.24871
▁geschlof	-9.24873
▁froen	-9.24874
▁Nopesch	-9.24876
▁Angscht	-9.24877
léifs	-9.24877
lesséiert	-9.2488
▁weider	-9.24883
schicht	-9.24887
▁Hotel	-9.24893
▁Film	-9.24896
▁gelunge	-9.24901
siichteg	-9.24911
▁bannen	-9.24913
▁geléiert	-9.24921
dësch	-9.24927
gezunn	-9.24931
▁Demand	-9.24937
▁Park	-9.24947
ismus	-9.24981
aterial	-9.25015
klasse	-9.2506
geklo	-9.25081
geschloen	-9.25104
▁kenne	-9.25422
trof	-9.25474
Direkt	-9.25791
rkéier	-9.26209
wiess	-9.26496
abri	-9.26893
▁Vol	-9.2827
choul	-9.29736
Visi	-9.366
Aarbecht	-9.45833
U	-9.45907
▁Herrgott	-9.49865
Transport	-9.49865
Zesumme	-9.49865
ampagne	-9.49865
anzwanzegste	-9.49865
beweegung	-9.49865
kribbelt	-9.49865
liedermaus	-9.49865
ndustrie	-9.49865
politesch	-9.49865
prinzip	-9.49865
ö	-9.49865
▁Buergermeeschte	-9.49865
▁Decisioun	-9.49865
▁Energy	-9.49865
▁Frigo	-9.49865
▁Jugend	-9.49865
▁Kierchtuerm	-9.49865
▁Libesromaner	-9.49865
▁Marques	-9.49865
▁Sonndeg	-9.49865
▁Tournée	-9.49865
▁Zoossiss	-9.49865
▁Zänndokter	-9.49865
▁enttäuscht	-9.49865
▁erklären	-9.49865
▁erlaabt	-9.49865
▁foffz	-9.49865
▁gepickt	-9.49865
▁geschriwwen	-9.49865
▁heefeg	-9.49865
▁hoffen	-9.49865
▁intresséiert	-9.49865
▁invitéier	-9.49865
▁kritiséiert	-9.49865
▁onglécklech	-9.49865
▁riskéiert	-9.49865
▁schlëmm	-9.49865
▁selwecht	-9.49865
▁wibbel	-9.49865
▁Äntwert	-9.49865
Infektiouns	-9.49865
▁Energie	-9.49865
▁Verantwort	-9.49865
▁gedronk	-9.49865
▁hannendr	-9.49865
▁kompl	-9.49865
▁ufänkt	-9.49865
Käerz	-9.49865
▁Student	-9.49865
▁bekannt	-9.49865
▁knips	-9.49865
Saison	-9.49865
Pandemie	-9.49866
▁Alters	-9.49866
▁Weekend	-9.49866
Prënz	-9.49866
ational	-9.49866
gestuerwe	-9.49866
▁Klengen	-9.49866
▁gerechent	-9.49866
wénk	-9.49866
▁beschäftege	-9.49866
▁Iechternach	-9.49866
▁Gebuert	-9.49866
iwwel	-9.49866
▁normal	-9.49866
Blieder	-9.49866
▁Fridden	-9.49866
▁Fichier	-9.49866
Gromper	-9.49866
wierken	-9.49867
▁informéier	-9.49867
samml	-9.49867
geléint	-9.49867
gräifen	-9.49868
Portioun	-9.49868
rénk	-9.49868
▁Krich	-9.49868
▁erkenn	-9.49869
▁dréche	-9.49869
▁schmaach	-9.49869
Staats	-9.4987
Riddoen	-9.4987
▁Droge	-9.4987
▁flott	-9.4987
luewe	-9.4987
xplo	-9.49871
▁lief	-9.49871
Maschinn	-9.49871
▁eidel	-9.49871
▁modern	-9.49872
▁rezente	-9.49872
▁wäit	-9.49873
▁enorm	-9.49874
▁geheie	-9.49875
Holz	-9.49878
wësse	-9.49879
Kleeder	-9.49881
Therm	-9.49885
lumme	-9.49895
▁Iesse	-9.4991
Y	-9.83198
%	-9.83198
–	-9.83198
ô	-10.332
/	-10.332
;	-10.332
â	-10.332
Ü	-10.332
ê	-11.3312
É	-11.3313
Q	-11.3314
q	-11.3315
J	-11.3316
Z	-11.3317
O	-11.3318
F	-11.3319
(	-11.332
)	-11.332
E	-11.332
»	-11.332
ç	-11.332
û	-11.332
“	-11.332
